[PAD]	0
[UNK]	0
[BOS]	0
▁t	-0
▁th	-1
▁a	-2
▁i	-3
▁w	-4
▁s	-5
▁the	-6
re	-7
▁o	-8
in	-9
at	-10
ou	-11
er	-12
nd	-13
▁c	-14
▁b	-15
ing	-16
▁h	-17
on	-18
▁m	-19
▁to	-20
▁y	-21
▁and	-22
▁p	-23
▁f	-24
▁d	-25
en	-26
▁you	-27
▁l	-28
ll	-29
es	-30
or	-31
an	-32
▁g	-33
▁of	-34
▁in	-35
it	-36
▁that	-37
is	-38
ed	-39
▁n	-40
ar	-41
om	-42
▁we	-43
▁it	-44
us	-45
ve	-46
▁wh	-47
ow	-48
as	-49
▁is	-50
ic	-51
le	-52
▁be	-53
▁e	-54
al	-55
ion	-56
ut	-57
et	-58
▁re	-59
ot	-60
▁so	-61
▁on	-62
ay	-63
▁ha	-64
ct	-65
▁this	-66
ent	-67
ke	-68
ver	-69
▁for	-70
▁he	-71
ig	-72
▁u	-73
all	-74
se	-75
▁st	-76
▁go	-77
ro	-78
id	-79
▁k	-80
▁li	-81
st	-82
ly	-83
ch	-84
ld	-85
▁j	-86
▁do	-87
▁have	-88
ith	-89
am	-90
▁an	-91
ce	-92
ur	-93
▁r	-94
▁are	-95
▁se	-96
ally	-97
▁with	-98
▁can	-99
▁as	-100
im	-101
ht	-102
th	-103
ust	-104
▁but	-105
ation	-106
▁what	-107
▁they	-108
ad	-109
▁like	-110
ir	-111
▁or	-112
ome	-113
▁not	-114
ight	-115
▁ab	-116
ant	-117
op	-118
▁was	-119
▁kn	-120
▁mo	-121
▁sh	-122
▁there	-123
ill	-124
▁ne	-125
▁me	-126
ere	-127
▁know	-128
use	-129
▁if	-130
▁just	-131
oo	-132
▁ch	-133
▁at	-134
▁all	-135
out	-136
▁your	-137
▁pro	-138
ould	-139
▁al	-140
▁con	-141
ck	-142
ers	-143
▁com	-144
ul	-145
▁de	-146
▁ex	-147
ge	-148
▁fr	-149
▁v	-150
il	-151
ess	-152
qu	-153
very	-154
▁about	-155
pp	-156
ra	-157
▁wor	-158
ter	-159
▁one	-160
▁su	-161
▁my	-162
ate	-163
if	-164
art	-165
est	-166
od	-167
▁bec	-168
pe	-169
ol	-170
▁ma	-171
ive	-172
ab	-173
▁here	-174
▁some	-175
▁get	-176
ind	-177
ink	-178
ause	-179
um	-180
▁us	-181
▁going	-182
nt	-183
ist	-184
▁from	-185
ook	-186
ort	-187
▁don	-188
▁out	-189
▁see	-190
▁tr	-191
▁up	-192
▁because	-193
▁then	-194
ea	-195
▁will	-196
ity	-197
un	-198
ain	-199
▁int	-200
▁thing	-201
▁now	-202
▁want	-203
▁right	-204
rou	-205
▁pe	-206
▁how	-207
▁think	-208
ment	-209
el	-210
▁our	-211
▁when	-212
ie	-213
res	-214
▁peop	-215
os	-216
▁people	-217
▁le	-218
ich	-219
▁really	-220
and	-221
ide	-222
ies	-223
▁tim	-224
▁pl	-225
ack	-226
▁them	-227
eth	-228
ect	-229
▁these	-230
▁by	-231
iv	-232
▁more	-233
our	-234
▁say	-235
ame	-236
▁look	-237
▁qu	-238
▁which	-239
em	-240
▁who	-241
so	-242
▁work	-243
▁act	-244
ose	-245
ard	-246
▁would	-247
ud	-248
ure	-249
gh	-250
ip	-251
▁cl	-252
▁any	-253
ine	-254
▁1	-255
▁ta	-256
ib	-257
are	-258
ast	-259
▁im	-260
ther	-261
▁very	-262
▁co	-263
▁time	-264
▁en	-265
▁also	-266
▁te	-267
ions	-268
one	-269
▁fe	-270
..	-271
▁every	-272
▁ad	-273
age	-274
▁man	-275
▁has	-276
▁let	-277
▁way	-278
act	-279
▁ev	-280
▁need	-281
▁no	-282
▁other	-283
ple	-284
per	-285
▁sa	-286
ually	-287
ci	-288
▁than	-289
▁well	-290
▁ag	-291
ff	-292
itt	-293
▁where	-294
king	-295
▁their	-296
iz	-297
▁som	-298
▁things	-299
▁lo	-300
iff	-301
ore	-302
ous	-303
her	-304
ite	-305
ice	-306
▁into	-307
▁ok	-308
▁diff	-309
▁pr	-310
reat	-311
pt	-312
▁part	-313
▁were	-314
▁cont	-315
▁tw	-316
▁had	-317
▁did	-318
▁those	-319
ans	-320
▁sp	-321
▁un	-322
ong	-323
▁over	-324
▁kind	-325
▁uh	-326
▁lot	-327
▁po	-328
▁back	-329
▁make	-330
▁got	-331
eah	-332
ber	-333
▁yeah	-334
▁ac	-335
▁am	-336
▁-	-337
own	-338
pl	-339
ree	-340
▁tal	-341
▁okay	-342
▁differe	-343
ag	-344
na	-345
▁2	-346
ick	-347
int	-348
▁actually	-349
▁use	-350
▁been	-351
▁fir	-352
ething	-353
ace	-354
▁something	-355
▁good	-356
▁spe	-357
ase	-358
ear	-359
ue	-360
▁may	-361
▁um	-362
nder	-363
▁res	-364
orm	-365
▁first	-366
▁pre	-367
▁could	-368
og	-369
way	-370
ire	-371
▁start	-372
ult	-373
▁gu	-374
▁dis	-375
able	-376
▁two	-377
ence	-378
ittle	-379
ep	-380
cess	-381
▁little	-382
ach	-383
ations	-384
▁comm	-385
▁app	-386
ry	-387
▁different	-388
▁mu	-389
▁imp	-390
▁sc	-391
xt	-392
▁does	-393
▁ar	-394
▁chan	-395
ass	-396
rough	-397
▁per	-398
▁new	-399
▁much	-400
▁through	-401
▁even	-402
▁comp	-403
▁again	-404
▁his	-405
▁year	-406
▁she	-407
vel	-408
ac	-409
▁down	-410
sel	-411
▁ro	-412
▁take	-413
uct	-414
ical	-415
ning	-416
ap	-417
▁off	-418
▁bu	-419
▁happ	-420
ated	-421
be	-422
▁bl	-423
▁prob	-424
00	-425
▁gon	-426
ys	-427
▁"	-428
▁gonna	-429
ving	-430
ress	-431
ents	-432
ody	-433
▁br	-434
ting	-435
ens	-436
ish	-437
▁dat	-438
▁bet	-439
▁call	-440
▁quest	-441
round	-442
form	-443
ance	-444
▁only	-445
ord	-446
▁try	-447
▁under	-448
co	-449
▁hel	-450
▁put	-451
ign	-452
thing	-453
ary	-454
▁ke	-455
ount	-456
ia	-457
ory	-458
ial	-459
▁doing	-460
▁bit	-461
▁help	-462
ile	-463
▁talk	-464
▁sy	-465
▁fo	-466
other	-467
▁inc	-468
▁come	-469
ound	-470
ild	-471
▁day	-472
▁stud	-473
▁should	-474
fe	-475
▁being	-476
▁mean	-477
▁said	-478
▁vide	-479
▁many	-480
vers	-481
▁pers	-482
▁add	-483
▁id	-484
ak	-485
▁ph	-486
day	-487
ght	-488
▁why	-489
▁rec	-490
fore	-491
ject	-492
▁bas	-493
▁show	-494
ater	-495
▁most	-496
...	-497
▁same	-498
ail	-499
ces	-500
▁af	-501
▁em	-502
▁inst	-503
▁point	-504
▁data	-505
ically	-506
▁inter	-507
▁god	-508
▁thank	-509
▁her	-510
▁str	-511
▁gr	-512
▁great	-513
▁him	-514
▁mar	-515
▁gen	-516
ition	-517
ms	-518
▁find	-519
▁oh	-520
▁des	-521
ful	-522
▁num	-523
▁feel	-524
▁ser	-525
▁rem	-526
▁ind	-527
ual	-528
▁wr	-529
ors	-530
▁too	-531
self	-532
ough	-533
▁jo	-534
ible	-535
▁[	-536
ious	-537
▁next	-538
▁fl	-539
ade	-540
▁exam	-541
av	-542
▁op	-543
ty	-544
ull	-545
▁tra	-546
ub	-547
▁before	-548
wn	-549
body	-550
▁person	-551
▁set	-552
ph	-553
▁end	-554
we	-555
▁might	-556
▁another	-557
▁rel	-558
▁read	-559
▁cour	-560
▁bo	-561
▁still	-562
▁import	-563
ether	-564
▁around	-565
bs	-566
▁lear	-567
ction	-568
ft	-569
▁sure	-570
▁give	-571
les	-572
gr	-573
gt	-574
▁three	-575
▁maybe	-576
▁hig	-577
ways	-578
red	-579
ever	-580
▁life	-581
ool	-582
stem	-583
cr	-584
▁pos	-585
▁min	-586
▁video	-587
▁after	-588
arch	-589
atch	-590
▁3	-591
▁dr	-592
▁today	-593
te	-594
▁tell	-595
▁sim	-596
▁supp	-597
oth	-598
▁bel	-599
▁real	-600
ied	-601
ict	-602
▁cons	-603
▁sm	-604
ons	-605
▁years	-606
▁world	-607
ves	-608
▁system	-609
▁big	-610
ower	-611
▁important	-612
▁long	-613
ang	-614
read	-615
▁happen	-616
ise	-617
▁mod	-618
▁sl	-619
▁open	-620
nds	-621
▁number	-622
▁exper	-623
▁dec	-624
ily	-625
▁ho	-626
ved	-627
▁ty	-628
cus	-629
▁always	-630
▁(	-631
▁able	-632
ments	-633
ific	-634
ative	-635
ood	-636
ular	-637
ath	-638
▁own	-639
ert	-640
▁example	-641
▁rep	-642
ating	-643
▁def	-644
▁using	-645
ities	-646
▁commun	-647
erest	-648
ility	-649
cial	-650
▁course	-651
uc	-652
iew	-653
ix	-654
▁play	-655
ize	-656
urn	-657
ward	-658
▁interest	-659
▁ter	-660
▁question	-661
pect	-662
▁love	-663
▁underst	-664
▁didn	-665
▁fun	-666
▁last	-667
▁yes	-668
▁inv	-669
▁prod	-670
▁stu	-671
▁ob	-672
ates	-673
olog	-674
▁ear	-675
▁coll	-676
▁inform	-677
▁fin	-678
▁sort	-679
ks	-680
lic	-681
▁val	-682
▁att	-683
▁looking	-684
▁each	-685
▁keep	-686
▁ed	-687
▁guys	-688
▁la	-689
▁cr	-690
ably	-691
▁done	-692
ics	-693
ute	-694
▁pres	-695
▁everything	-696
▁understand	-697
▁high	-698
▁word	-699
ian	-700
▁ent	-701
kes	-702
▁run	-703
▁giv	-704
▁trans	-705
▁sch	-706
▁partic	-707
▁mon	-708
▁el	-709
▁seco	-710
▁used	-711
iss	-712
▁reg	-713
▁ins	-714
ought	-715
▁proble	-716
▁car	-717
▁list	-718
▁doesn	-719
hip	-720
▁information	-721
ract	-722
▁ass	-723
ven	-724
▁better	-725
▁z	-726
▁acc	-727
ention	-728
▁gener	-729
▁ask	-730
ope	-731
▁top	-732
▁stuff	-733
▁made	-734
▁getting	-735
▁20	-736
ell	-737
▁place	-738
▁change	-739
▁trying	-740
▁fact	-741
▁probably	-742
lect	-743
ead	-744
▁called	-745
▁process	-746
▁tech	-747
ren	-748
▁che	-749
▁book	-750
▁working	-751
▁equ	-752
▁build	-753
▁cur	-754
▁eas	-755
ience	-756
▁sub	-757
▁cre	-758
ween	-759
roup	-760
ues	-761
▁talking	-762
▁between	-763
▁its	-764
▁form	-765
▁creat	-766
▁eff	-767
ready	-768
als	-769
gan	-770
▁already	-771
▁exp	-772
▁group	-773
▁second	-774
ings	-775
▁move	-776
▁pret	-777
▁means	-778
▁name	-779
lo	-780
velop	-781
▁cou	-782
cept	-783
br	-784
gram	-785
▁power	-786
▁col	-787
▁never	-788
▁pretty	-789
▁5	-790
▁thought	-791
ier	-792
▁sur	-793
▁develop	-794
▁cle	-795
▁cor	-796
▁med	-797
▁4	-798
▁fam	-799
enc	-800
▁count	-801
▁both	-802
▁spec	-803
▁program	-804
ness	-805
wh	-806
▁project	-807
▁wee	-808
▁pub	-809
▁rese	-810
ution	-811
▁learn	-812
▁coming	-813
▁anything	-814
▁four	-815
llow	-816
gin	-817
▁pa	-818
ense	-819
▁comple	-820
▁says	-821
▁times	-822
▁belie	-823
ures	-824
▁whole	-825
▁research	-826
▁ca	-827
▁tog	-828
▁bus	-829
▁questions	-830
▁having	-831
▁test	-832
ros	-833
▁class	-834
ari	-835
▁ref	-836
▁hard	-837
▁heal	-838
▁care	-839
▁conf	-840
ited	-841
▁level	-842
▁few	-843
▁saying	-844
its	-845
ered	-846
▁together	-847
▁dire	-848
▁eng	-849
oney	-850
▁support	-851
▁mark	-852
▁case	-853
ode	-854
▁mat	-855
ather	-856
▁hu	-857
▁hum	-858
hing	-859
ost	-860
▁sin	-861
▁gra	-862
▁found	-863
▁tea	-864
▁techn	-865
▁prov	-866
▁product	-867
iness	-868
--	-869
▁watch	-870
ertain	-871
▁reas	-872
▁chr	-873
▁state	-874
▁aut	-875
▁ord	-876
▁char	-877
▁sk	-878
▁students	-879
▁once	-880
ices	-881
▁&	-882
ember	-883
▁ple	-884
▁sol	-885
▁hand	-886
▁pol	-887
▁art	-888
line	-889
▁best	-890
▁plan	-891
▁whatever	-892
▁wa	-893
lud	-894
▁money	-895
▁hope	-896
▁five	-897
ars	-898
▁sign	-899
▁check	-900
ug	-901
erg	-902
▁side	-903
▁share	-904
▁sit	-905
▁idea	-906
▁while	-907
▁started	-908
me	-909
ger	-910
▁small	-911
▁turn	-912
iting	-913
▁defin	-914
nect	-915
▁cent	-916
▁follow	-917
vious	-918
led	-919
▁stand	-920
▁far	-921
oy	-922
▁wanted	-923
▁dist	-924
▁mom	-925
▁problem	-926
get	-927
▁expl	-928
▁remember	-929
▁such	-930
▁poss	-931
▁less	-932
▁teach	-933
▁det	-934
▁mem	-935
▁access	-936
nce	-937
▁inf	-938
ational	-939
io	-940
▁pat	-941
▁par	-942
▁iss	-943
▁ext	-944
▁basically	-945
ized	-946
▁away	-947
▁lea	-948
ages	-949
▁x	-950
wor	-951
▁10	-952
amp	-953
imes	-954
ows	-955
▁comes	-956
ock	-957
▁certain	-958
ten	-959
▁else	-960
▁click	-961
▁create	-962
▁mind	-963
▁making	-964
▁community	-965
up	-966
ross	-967
ne	-968
ah	-969
▁red	-970
▁chang	-971
▁av	-972
▁home	-973
▁uni	-974
▁connect	-975
reen	-976
oc	-977
▁link	-978
▁lead	-979
▁particular	-980
▁bre	-981
▁--	-982
sw	-983
▁school	-984
▁came	-985
nding	-986
▁child	-987
▁free	-988
▁contin	-989
▁water	-990
ote	-991
▁met	-992
▁organ	-993
uring	-994
▁vis	-995
ware	-996
▁opp	-997
▁includ	-998
▁lar	-999
▁tool	-1000
ric	-1001
▁“	-1002
;&	-1003
▁requ	-1004
▁answ	-1005
▁nice	-1006
▁head	-1007
▁serv	-1008
view	-1009
▁fa	-1010
▁business	-1011
ipt	-1012
▁somet	-1013
▁frie	-1014
▁line	-1015
▁order	-1016
▁within	-1017
▁adv	-1018
▁someone	-1019
▁pass	-1020
ouse	-1021
ner	-1022
▁hear	-1023
ruct	-1024
ology	-1025
ient	-1026
▁contro	-1027
▁left	-1028
ash	-1029
▁old	-1030
▁begin	-1031
▁beh	-1032
▁resp	-1033
ont	-1034
▁health	-1035
▁went	-1036
▁loc	-1037
ature	-1038
▁step	-1039
ird	-1040
▁light	-1041
▁bring	-1042
▁es	-1043
▁quite	-1044
▁sometimes	-1045
lish	-1046
▁bra	-1047
▁fu	-1048
▁type	-1049
▁quick	-1050
ines	-1051
crib	-1052
▁focus	-1053
nel	-1054
."	-1055
▁everyone	-1056
▁month	-1057
▁without	-1058
▁di	-1059
▁game	-1060
▁direct	-1061
▁appro	-1062
tern	-1063
▁please	-1064
▁works	-1065
▁conc	-1066
ism	-1067
ety	-1068
▁full	-1069
▁jes	-1070
▁present	-1071
▁live	-1072
▁enough	-1073
az	-1074
▁opt	-1075
▁human	-1076
▁believe	-1077
▁reason	-1078
▁yourself	-1079
bers	-1080
▁experience	-1081
▁jesus	-1082
▁result	-1083
▁prof	-1084
▁stop	-1085
▁value	-1086
▁ah	-1087
▁ret	-1088
▁area	-1089
▁fil	-1090
ivid	-1091
ene	-1092
▁model	-1093
▁thinking	-1094
▁interesting	-1095
▁whether	-1096
▁week	-1097
ify	-1098
ital	-1099
▁sci	-1100
▁ways	-1101
▁sing	-1102
pr	-1103
▁wal	-1104
ield	-1105
▁christ	-1106
▁bad	-1107
▁goes	-1108
▁design	-1109
ately	-1110
▁pract	-1111
▁pur	-1112
▁everybody	-1113
▁wom	-1114
▁pay	-1115
▁public	-1116
▁looks	-1117
mm	-1118
▁dra	-1119
▁gl	-1120
▁since	-1121
▁exact	-1122
▁dem	-1123
▁rest	-1124
ortun	-1125
man	-1126
▁mult	-1127
▁though	-1128
ets	-1129
eric	-1130
▁effect	-1131
▁learning	-1132
▁space	-1133
▁typ	-1134
▁war	-1135
▁pop	-1136
▁sw	-1137
▁seen	-1138
rib	-1139
con	-1140
▁couple	-1141
▁ever	-1142
▁vari	-1143
ither	-1144
▁makes	-1145
▁energ	-1146
▁sec	-1147
▁spir	-1148
ior	-1149
▁cap	-1150
▁compan	-1151
▁6	-1152
ining	-1153
▁story	-1154
▁terms	-1155
▁19	-1156
▁speak	-1157
▁face	-1158
iter	-1159
▁post	-1160
▁past	-1161
ists	-1162
ton	-1163
▁vers	-1164
ases	-1165
▁libr	-1166
▁hist	-1167
▁unt	-1168
▁somebody	-1169
▁meet	-1170
ization	-1171
▁exc	-1172
▁intern	-1173
osed	-1174
ants	-1175
▁sense	-1176
▁view	-1177
selves	-1178
▁grow	-1179
▁cal	-1180
vern	-1181
▁mus	-1182
▁mention	-1183
cuss	-1184
▁team	-1185
▁body	-1186
ange	-1187
la	-1188
ator	-1189
▁mess	-1190
▁clear	-1191
▁social	-1192
▁nothing	-1193
▁'	-1194
▁miss	-1195
unch	-1196
less	-1197
▁discuss	-1198
▁const	-1199
cially	-1200
ank	-1201
▁least	-1202
ural	-1203
▁net	-1204
▁often	-1205
▁answer	-1206
▁family	-1207
▁hour	-1208
▁function	-1209
▁key	-1210
▁educ	-1211
▁complete	-1212
work	-1213
▁bro	-1214
▁dep	-1215
▁code	-1216
▁prot	-1217
ider	-1218
ream	-1219
▁govern	-1220
▁later	-1221
▁become	-1222
com	-1223
itive	-1224
ts	-1225
▁either	-1226
ump	-1227
▁moment	-1228
ught	-1229
come	-1230
rent	-1231
▁must	-1232
▁energy	-1233
▁mor	-1234
▁spirit	-1235
ark	-1236
▁cool	-1237
ides	-1238
ale	-1239
▁control	-1240
gg	-1241
ames	-1242
▁page	-1243
▁super	-1244
▁record	-1245
ality	-1246
▁resour	-1247
▁dev	-1248
▁sou	-1249
ins	-1250
▁market	-1251
ken	-1252
▁incre	-1253
ott	-1254
▁days	-1255
anc	-1256
▁house	-1257
angu	-1258
▁obvious	-1259
▁text	-1260
ability	-1261
most	-1262
▁wo	-1263
▁abs	-1264
▁taking	-1265
▁words	-1266
▁based	-1267
▁deal	-1268
▁mill	-1269
ew	-1270
000	-1271
alf	-1272
ime	-1273
▁buy	-1274
▁fig	-1275
ern	-1276
▁yet	-1277
▁cond	-1278
▁langu	-1279
▁during	-1280
▁ve	-1281
▁ele	-1282
▁suc	-1283
▁hold	-1284
▁avail	-1285
ble	-1286
▁job	-1287
▁allow	-1288
▁easy	-1289
itely	-1290
▁aud	-1291
▁short	-1292
sh	-1293
▁guess	-1294
verse	-1295
▁sound	-1296
▁six	-1297
▁ident	-1298
▁collect	-1299
where	-1300
▁until	-1301
▁pie	-1302
▁comput	-1303
eng	-1304
▁current	-1305
▁food	-1306
▁possible	-1307
not	-1308
▁channel	-1309
▁situ	-1310
▁relations	-1311
row	-1312
wards	-1313
▁room	-1314
▁sour	-1315
pecially	-1316
▁americ	-1317
▁ra	-1318
▁close	-1319
cent	-1320
utes	-1321
▁anal	-1322
▁especially	-1323
▁online	-1324
▁exactly	-1325
min	-1326
▁aff	-1327
▁main	-1328
▁8	-1329
▁fre	-1330
▁needs	-1331
▁law	-1332
▁break	-1333
ush	-1334
▁kid	-1335
▁content	-1336
▁saw	-1337
ateg	-1338
▁definitely	-1339
▁stay	-1340
▁single	-1341
rod	-1342
▁fut	-1343
book	-1344
▁black	-1345
med	-1346
uce	-1347
▁7	-1348
▁del	-1349
▁inside	-1350
▁individ	-1351
▁neg	-1352
cript	-1353
▁available	-1354
aces	-1355
side	-1356
▁almost	-1357
ired	-1358
rop	-1359
▁9	-1360
cum	-1361
▁listen	-1362
ives	-1363
ories	-1364
▁true	-1365
▁ap	-1366
▁lab	-1367
ident	-1368
▁field	-1369
▁object	-1370
ional	-1371
▁happens	-1372
▁isn	-1373
▁web	-1374
ee	-1375
▁across	-1376
▁univers	-1377
▁trad	-1378
▁specific	-1379
ared	-1380
▁oper	-1381
▁ahead	-1382
▁given	-1383
▁relationship	-1384
ency	-1385
aut	-1386
aring	-1387
itch	-1388
▁videos	-1389
▁env	-1390
ret	-1391
▁cop	-1392
▁mid	-1393
▁air	-1394
▁activ	-1395
▁ones	-1396
▁write	-1397
▁expect	-1398
ially	-1399
cc	-1400
ling	-1401
▁fore	-1402
ully	-1403
▁file	-1404
▁vol	-1405
aking	-1406
▁norm	-1407
▁wel	-1408
▁search	-1409
▁chall	-1410
ina	-1411
ond	-1412
arent	-1413
▁event	-1414
▁dig	-1415
▁subs	-1416
▁took	-1417
▁0	-1418
▁opportun	-1419
ave	-1420
▁bar	-1421
▁large	-1422
▁matter	-1423
▁pot	-1424
ased	-1425
▁individual	-1426
▁half	-1427
▁future	-1428
▁land	-1429
ering	-1430
▁along	-1431
ilar	-1432
▁squ	-1433
▁ago	-1434
▁myself	-1435
▁press	-1436
▁charact	-1437
▁thanks	-1438
▁elect	-1439
▁tem	-1440
▁hey	-1441
ision	-1442
▁leave	-1443
▁leg	-1444
▁depe	-1445
▁pain	-1446
▁cra	-1447
iron	-1448
▁instead	-1449
▁happened	-1450
▁enc	-1451
fully	-1452
▁multip	-1453
▁prom	-1454
▁wonder	-1455
▁phys	-1456
▁invest	-1457
uck	-1458
▁environ	-1459
▁report	-1460
▁success	-1461
bo	-1462
▁rele	-1463
▁fac	-1464
ule	-1465
thers	-1466
put	-1467
▁similar	-1468
lf	-1469
▁cost	-1470
▁webs	-1471
▁proper	-1472
▁amaz	-1473
▁others	-1474
▁account	-1475
▁non	-1476
▁simple	-1477
▁ide	-1478
▁wind	-1479
▁obviously	-1480
▁against	-1481
▁pull	-1482
▁study	-1483
▁sor	-1484
ri	-1485
▁gets	-1486
▁building	-1487
▁auth	-1488
▁wasn	-1489
▁meth	-1490
▁lord	-1491
▁won	-1492
▁mic	-1493
▁wrong	-1494
▁heart	-1495
▁cult	-1496
▁children	-1497
▁hit	-1498
▁invol	-1499
▁pick	-1500
▁sal	-1501
▁lim	-1502
▁happy	-1503
▁men	-1504
▁general	-1505
▁tot	-1506
▁mater	-1507
▁plus	-1508
▁color	-1509
olute	-1510
to	-1511
▁figure	-1512
▁201	-1513
▁pict	-1514
▁amount	-1515
▁youn	-1516
ral	-1517
cul	-1518
ube	-1519
oss	-1520
▁beaut	-1521
▁forward	-1522
ero	-1523
▁language	-1524
▁absolute	-1525
land	-1526
▁doll	-1527
ron	-1528
▁ey	-1529
fect	-1530
▁however	-1531
▁common	-1532
▁screen	-1533
▁cut	-1534
▁ris	-1535
▁lay	-1536
▁er	-1537
▁percent	-1538
load	-1539
▁disc	-1540
ided	-1541
▁rece	-1542
gn	-1543
▁seeing	-1544
eter	-1545
▁minutes	-1546
▁watching	-1547
right	-1548
▁hy	-1549
▁soft	-1550
orn	-1551
▁ge	-1552
▁night	-1553
▁happening	-1554
▁choo	-1555
▁material	-1556
▁friends	-1557
▁states	-1558
▁convers	-1559
cle	-1560
▁country	-1561
▁low	-1562
ove	-1563
▁mentioned	-1564
▁usually	-1565
ified	-1566
▁welcome	-1567
▁standard	-1568
▁heard	-1569
▁struct	-1570
aster	-1571
▁haven	-1572
▁tre	-1573
▁applic	-1574
▁resources	-1575
▁liter	-1576
▁special	-1577
▁government	-1578
▁sorry	-1579
ta	-1580
▁strong	-1581
▁inte	-1582
cribe	-1583
icult	-1584
oice	-1585
▁technology	-1586
▁entire	-1587
▁cust	-1588
▁corre	-1589
▁told	-1590
▁hon	-1591
▁repres	-1592
▁issues	-1593
▁history	-1594
▁ready	-1595
▁maj	-1596
▁earth	-1597
▁front	-1598
ined	-1599
▁white	-1600
▁perfect	-1601
▁sam	-1602
▁environment	-1603
▁est	-1604
▁meas	-1605
▁bene	-1606
▁itself	-1607
ences	-1608
▁har	-1609
▁react	-1610
▁consider	-1611
▁bi	-1612
▁takes	-1613
▁situation	-1614
iver	-1615
▁method	-1616
▁walk	-1617
ledge	-1618
mend	-1619
▁docum	-1620
▁stat	-1621
▁box	-1622
▁hell	-1623
par	-1624
▁difficult	-1625
ential	-1626
▁women	-1627
▁select	-1628
▁third	-1629
▁reach	-1630
▁running	-1631
▁bott	-1632
▁cannot	-1633
▁sell	-1634
▁address	-1635
▁gives	-1636
ration	-1637
▁talked	-1638
▁cir	-1639
▁ep	-1640
▁self	-1641
▁log	-1642
▁fall	-1643
ousand	-1644
▁review	-1645
ium	-1646
▁website	-1647
▁jour	-1648
air	-1649
▁vir	-1650
▁aw	-1651
▁thousand	-1652
▁outside	-1653
▁custom	-1654
▁treat	-1655
▁inde	-1656
ently	-1657
▁moving	-1658
▁email	-1659
▁library	-1660
▁approach	-1661
▁necess	-1662
▁wait	-1663
▁ess	-1664
▁imag	-1665
ibility	-1666
▁service	-1667
▁negative	-1668
▁created	-1669
ians	-1670
▁major	-1671
▁continue	-1672
▁explain	-1673
ries	-1674
▁benef	-1675
the	-1676
▁guy	-1677
▁block	-1678
▁student	-1679
▁education	-1680
▁enj	-1681
▁camp	-1682
▁nor	-1683
▁orig	-1684
▁cell	-1685
▁early	-1686
▁manage	-1687
▁div	-1688
ression	-1689
ental	-1690
▁below	-1691
ulation	-1692
▁company	-1693
▁tools	-1694
▁ant	-1695
▁impro	-1696
ced	-1697
▁asked	-1698
ilt	-1699
▁15	-1700
itional	-1701
▁detail	-1702
ume	-1703
▁issue	-1704
▁city	-1705
▁skill	-1706
▁enjoy	-1707
old	-1708
▁provide	-1709
▁profess	-1710
itting	-1711
▁young	-1712
▁rather	-1713
▁exist	-1714
▁fur	-1715
▁12	-1716
▁living	-1717
ane	-1718
▁recom	-1719
ots	-1720
▁nat	-1721
ndred	-1722
▁higher	-1723
▁source	-1724
▁science	-1725
itical	-1726
ipp	-1727
▁summ	-1728
▁feed	-1729
▁impact	-1730
▁cam	-1731
itions	-1732
▁...	-1733
▁finally	-1734
▁image	-1735
▁interested	-1736
hn	-1737
omes	-1738
urch	-1739
▁perform	-1740
ploy	-1741
ps	-1742
▁problems	-1743
▁origin	-1744
▁behind	-1745
▁hundred	-1746
▁ste	-1747
▁sent	-1748
▁university	-1749
conom	-1750
▁difference	-1751
▁30	-1752
ples	-1753
▁king	-1754
▁completely	-1755
▁fast	-1756
▁da	-1757
que	-1758
▁table	-1759
▁yout	-1760
▁mot	-1761
▁church	-1762
▁stra	-1763
▁introd	-1764
▁beautif	-1765
▁themselves	-1766
▁music	-1767
▁protect	-1768
▁choose	-1769
▁absolutely	-1770
▁holy	-1771
▁morning	-1772
▁instit	-1773
▁hours	-1774
plic	-1775
rew	-1776
▁beginning	-1777
▁changes	-1778
▁huge	-1779
oud	-1780
▁points	-1781
aps	-1782
▁media	-1783
▁occ	-1784
att	-1785
▁local	-1786
▁dam	-1787
▁kill	-1788
▁dou	-1789
▁port	-1790
▁card	-1791
▁cover	-1792
▁results	-1793
▁starting	-1794
▁send	-1795
ctor	-1796
idence	-1797
▁init	-1798
no	-1799
raph	-1800
▁attack	-1801
▁pray	-1802
app	-1803
▁network	-1804
▁econom	-1805
▁giving	-1806
ised	-1807
▁path	-1808
▁zero	-1809
den	-1810
dle	-1811
▁paper	-1812
▁pack	-1813
▁plat	-1814
▁heav	-1815
imate	-1816
▁mach	-1817
▁mass	-1818
▁communic	-1819
▁development	-1820
ike	-1821
▁priv	-1822
▁command	-1823
▁computer	-1824
ats	-1825
▁$	-1826
▁recommend	-1827
▁arch	-1828
▁fine	-1829
▁eight	-1830
ains	-1831
entially	-1832
▁systems	-1833
erence	-1834
▁age	-1835
▁equal	-1836
▁character	-1837
▁notice	-1838
▁center	-1839
▁beautiful	-1840
▁mil	-1841
inc	-1842
▁size	-1843
▁represent	-1844
▁particip	-1845
gress	-1846
▁kids	-1847
▁amazing	-1848
ply	-1849
▁fight	-1850
ude	-1851
▁john	-1852
▁sever	-1853
▁months	-1854
atic	-1855
ming	-1856
▁friend	-1857
▁soci	-1858
▁knowledge	-1859
erv	-1860
▁news	-1861
ake	-1862
ients	-1863
▁green	-1864
ift	-1865
▁win	-1866
▁piece	-1867
▁seven	-1868
▁types	-1869
,000	-1870
▁soon	-1871
▁numbers	-1872
arily	-1873
▁comment	-1874
▁copy	-1875
▁practice	-1876
face	-1877
▁bill	-1878
po	-1879
▁–	-1880
lt	-1881
▁tar	-1882
▁simply	-1883
▁polic	-1884
zy	-1885
▁youtube	-1886
ogn	-1887
ls	-1888
▁version	-1889
▁cy	-1890
▁phot	-1891
▁further	-1892
▁opportunity	-1893
▁feeling	-1894
▁software	-1895
▁writing	-1896
▁services	-1897
▁training	-1898
cy	-1899
▁button	-1900
▁position	-1901
▁bottom	-1902
▁artic	-1903
▁several	-1904
▁section	-1905
avor	-1906
▁comb	-1907
▁anyway	-1908
▁scr	-1909
▁lots	-1910
acy	-1911
lier	-1912
▁worked	-1913
▁quickly	-1914
ouch	-1915
▁parent	-1916
ape	-1917
ilities	-1918
▁bal	-1919
▁correct	-1920
▁million	-1921
ief	-1922
▁chat	-1923
▁positive	-1924
▁fire	-1925
▁fail	-1926
▁user	-1927
▁fill	-1928
▁item	-1929
▁known	-1930
▁ten	-1931
▁respons	-1932
utions	-1933
iod	-1934
▁recogn	-1935
▁platform	-1936
▁groups	-1937
▁needed	-1938
▁anyone	-1939
▁strateg	-1940
▁areas	-1941
▁setting	-1942
▁micro	-1943
▁looked	-1944
▁track	-1945
ik	-1946
▁seems	-1947
▁reading	-1948
▁draw	-1949
▁middle	-1950
vert	-1951
▁pan	-1952
▁period	-1953
▁encou	-1954
▁towards	-1955
▁personal	-1956
▁trust	-1957
▁board	-1958
▁action	-1959
▁sat	-1960
ram	-1961
▁var	-1962
▁wants	-1963
▁separ	-1964
ination	-1965
▁longer	-1966
▁interact	-1967
▁phone	-1968
▁gir	-1969
▁picture	-1970
ones	-1971
▁arg	-1972
▁glo	-1973
▁indust	-1974
▁members	-1975
etic	-1976
▁anim	-1977
▁experi	-1978
▁clean	-1979
▁ideas	-1980
▁finish	-1981
▁united	-1982
▁knew	-1983
▁instruct	-1984
▁document	-1985
▁famil	-1986
▁sho	-1987
nded	-1988
istic	-1989
urity	-1990
ground	-1991
back	-1992
▁deep	-1993
▁purp	-1994
▁risk	-1995
▁rad	-1996
▁dark	-1997
▁return	-1998
izing	-1999
iate	-2000
▁fair	-2001
▁eu	-2002
ived	-2003
▁author	-2004
▁arr	-2005
▁dom	-2006
▁understanding	-2007
▁comments	-2008
▁goog	-2009
▁save	-2010
cription	-2011
ances	-2012
▁wouldn	-2013
▁subject	-2014
▁multiple	-2015
▁obs	-2016
by	-2017
▁earlier	-2018
▁100	-2019
he	-2020
▁previous	-2021
aff	-2022
▁concept	-2023
▁agree	-2024
ery	-2025
ax	-2026
▁involved	-2027
▁fix	-2028
▁blue	-2029
▁dollars	-2030
▁publish	-2031
ables	-2032
▁taken	-2033
▁prop	-2034
▁ill	-2035
▁series	-2036
ney	-2037
▁apply	-2038
ips	-2039
▁normal	-2040
por	-2041
▁kinds	-2042
▁touch	-2043
▁deg	-2044
ny	-2045
▁flow	-2046
▁alright	-2047
▁google	-2048
ror	-2049
▁emot	-2050
▁integr	-2051
light	-2052
▁final	-2053
ners	-2054
▁tit	-2055
▁manag	-2056
▁eat	-2057
▁built	-2058
▁accept	-2059
uth	-2060
bal	-2061
▁push	-2062
▁ps	-2063
aries	-2064
soci	-2065
ators	-2066
▁minus	-2067
▁measure	-2068
▁ann	-2069
ugg	-2070
▁digital	-2071
▁ground	-2072
▁site	-2073
ison	-2074
ec	-2075
▁colle	-2076
▁sess	-2077
▁50	-2078
▁engine	-2079
▁national	-2080
elt	-2081
▁actual	-2082
cast	-2083
▁note	-2084
▁learned	-2085
▁extra	-2086
▁pea	-2087
▁structure	-2088
▁message	-2089
▁sn	-2090
itor	-2091
ma	-2092
▁father	-2093
▁upd	-2094
▁term	-2095
▁conte	-2096
▁places	-2097
els	-2098
▁sugg	-2099
▁store	-2100
▁suggest	-2101
▁favor	-2102
▁gone	-2103
go	-2104
▁infl	-2105
▁aware	-2106
▁price	-2107
▁grad	-2108
▁shows	-2109
▁role	-2110
▁target	-2111
▁meaning	-2112
iding	-2113
▁asking	-2114
▁near	-2115
▁values	-2116
▁deb	-2117
▁gave	-2118
▁hands	-2119
iving	-2120
▁products	-2121
fer	-2122
mb	-2123
dom	-2124
▁wall	-2125
ugh	-2126
▁books	-2127
▁autom	-2128
for	-2129
▁including	-2130
ules	-2131
▁certainly	-2132
▁associ	-2133
▁putting	-2134
▁bur	-2135
▁sle	-2136
▁slide	-2137
let	-2138
▁context	-2139
▁attention	-2140
▁physical	-2141
▁camer	-2142
gest	-2143
▁hi	-2144
▁18	-2145
ograph	-2146
▁rate	-2147
▁jump	-2148
▁useful	-2149
▁capt	-2150
ively	-2151
▁coun	-2152
▁drop	-2153
▁following	-2154
yn	-2155
▁lives	-2156
▁dest	-2157
▁sens	-2158
ask	-2159
▁cases	-2160
▁challeng	-2161
▁calcul	-2162
▁bunch	-2163
itten	-2164
▁subscribe	-2165
▁cross	-2166
▁basic	-2167
vent	-2168
anna	-2169
▁fol	-2170
▁teaching	-2171
▁sun	-2172
▁200	-2173
ring	-2174
██	-2175
▁upon	-2176
▁cause	-2177
▁ang	-2178
▁worth	-2179
▁quality	-2180
ysis	-2181
▁security	-2182
▁lower	-2183
▁require	-2184
▁parts	-2185
▁clos	-2186
lus	-2187
▁playing	-2188
▁creating	-2189
▁deter	-2190
▁honest	-2191
▁encoura	-2192
▁appear	-2193
▁jud	-2194
▁internet	-2195
▁continu	-2196
ony	-2197
▁force	-2198
▁goal	-2199
ops	-2200
▁hopefully	-2201
ru	-2202
▁felt	-2203
fort	-2204
▁couldn	-2205
ler	-2206
▁effort	-2207
▁faith	-2208
ughter	-2209
ses	-2210
▁death	-2211
▁office	-2212
▁various	-2213
▁slow	-2214
yle	-2215
asing	-2216
▁affect	-2217
▁complex	-2218
▁lost	-2219
▁contain	-2220
▁behav	-2221
▁concern	-2222
▁ability	-2223
▁meeting	-2224
▁telling	-2225
reci	-2226
▁imagine	-2227
apter	-2228
▁pen	-2229
▁projects	-2230
ification	-2231
ising	-2232
▁dise	-2233
▁forget	-2234
▁hello	-2235
rought	-2236
▁caus	-2237
▁changed	-2238
▁society	-2239
▁truth	-2240
ister	-2241
▁rich	-2242
▁conversation	-2243
▁prim	-2244
▁imple	-2245
▁prep	-2246
▁cla	-2247
▁tried	-2248
▁ce	-2249
ensive	-2250
more	-2251
▁suff	-2252
▁anybody	-2253
▁improve	-2254
ges	-2255
▁organization	-2256
▁brain	-2257
unt	-2258
▁enter	-2259
abor	-2260
▁audience	-2261
apt	-2262
▁related	-2263
▁print	-2264
▁facebook	-2265
ife	-2266
▁hot	-2267
reme	-2268
▁nature	-2269
▁contrib	-2270
room	-2271
▁easier	-2272
▁signific	-2273
▁base	-2274
▁bud	-2275
▁american	-2276
▁pred	-2277
▁include	-2278
vered	-2279
igh	-2280
▁appreci	-2281
▁cry	-2282
▁speaking	-2283
▁natural	-2284
iction	-2285
▁literally	-2286
▁q	-2287
▁datab	-2288
olution	-2289
▁implement	-2290
▁scient	-2291
ged	-2292
▁vi	-2293
▁spend	-2294
▁written	-2295
▁college	-2296
▁pattern	-2297
ission	-2298
▁sequ	-2299
rap	-2300
verage	-2301
▁dead	-2302
▁weeks	-2303
▁woman	-2304
▁unf	-2305
▁sex	-2306
▁safe	-2307
▁hor	-2308
astic	-2309
▁straight	-2310
atures	-2311
▁disco	-2312
▁arm	-2313
▁intell	-2314
▁background	-2315
▁gold	-2316
▁son	-2317
▁install	-2318
play	-2319
▁chapter	-2320
uced	-2321
lex	-2322
ury	-2323
▁ach	-2324
▁constant	-2325
-1	-2326
▁analysis	-2327
▁topic	-2328
▁map	-2329
▁range	-2330
▁foot	-2331
cious	-2332
▁helps	-2333
▁distrib	-2334
▁perspect	-2335
haps	-2336
▁management	-2337
▁mag	-2338
▁solution	-2339
▁examples	-2340
▁staff	-2341
▁cloud	-2342
▁increase	-2343
▁above	-2344
▁application	-2345
▁direction	-2346
▁contact	-2347
▁euro	-2348
▁blood	-2349
▁consum	-2350
▁perhaps	-2351
▁wonderful	-2352
▁machine	-2353
▁aren	-2354
▁options	-2355
of	-2356
▁ur	-2357
ters	-2358
▁gh	-2359
▁bab	-2360
▁therefore	-2361
▁minute	-2362
▁total	-2363
▁compet	-2364
▁culture	-2365
▁respect	-2366
▁knows	-2367
▁description	-2368
▁tom	-2369
▁sharing	-2370
ites	-2371
▁rock	-2372
▁folks	-2373
▁travel	-2374
▁speed	-2375
▁showing	-2376
▁companies	-2377
▁match	-2378
▁host	-2379
▁eyes	-2380
.”	-2381
▁offer	-2382
▁frame	-2383
▁excited	-2384
▁cat	-2385
▁decided	-2386
▁road	-2387
▁broad	-2388
emic	-2389
▁weight	-2390
ctions	-2391
▁leaders	-2392
▁brought	-2393
▁compon	-2394
ship	-2395
▁likely	-2396
▁option	-2397
▁directly	-2398
ires	-2399
▁door	-2400
▁thoughts	-2401
ried	-2402
▁supposed	-2403
▁pod	-2404
▁discussion	-2405
▁regard	-2406
▁countries	-2407
▁reasons	-2408
▁et	-2409
▁decision	-2410
▁files	-2411
▁stories	-2412
▁dream	-2413
▁chance	-2414
▁except	-2415
▁achie	-2416
▁emb	-2417
▁load	-2418
▁fund	-2419
fl	-2420
▁english	-2421
▁offic	-2422
▁policy	-2423
▁25	-2424
▁star	-2425
▁essentially	-2426
?"	-2427
▁becomes	-2428
▁indic	-2429
▁ourselves	-2430
▁scp	-2431
ha	-2432
▁depart	-2433
▁experim	-2434
▁sil	-2435
▁throughout	-2436
▁drive	-2437
▁princ	-2438
▁rob	-2439
▁journ	-2440
▁employ	-2441
xim	-2442
▁graph	-2443
▁events	-2444
ifically	-2445
▁request	-2446
oid	-2447
20	-2448
lling	-2449
▁input	-2450
▁cred	-2451
▁became	-2452
▁wow	-2453
▁europe	-2454
▁prior	-2455
sc	-2456
▁parents	-2457
ason	-2458
ological	-2459
▁nar	-2460
▁scale	-2461
▁skills	-2462
▁switch	-2463
▁ton	-2464
▁exec	-2465
wise	-2466
▁date	-2467
rast	-2468
enge	-2469
▁mer	-2470
▁tur	-2471
▁wanna	-2472
ibly	-2473
▁	-2474
e	-2475
t	-2476
o	-2477
a	-2478
i	-2479
n	-2480
s	-2481
r	-2482
h	-2483
l	-2484
d	-2485
u	-2486
c	-2487
y	-2488
m	-2489
g	-2490
w	-2491
f	-2492
p	-2493
b	-2494
k	-2495
v	-2496
.	-2497
,	-2498
'	-2499
j	-2500
x	-2501
-	-2502
q	-2503
0	-2504
z	-2505
1	-2506
?	-2507
2	-2508
:	-2509
"	-2510
’	-2511
5	-2512
3	-2513
;	-2514
4	-2515
9	-2516
&	-2517
[	-2518
]	-2519
6	-2520
8	-2521
!	-2522
)	-2523
(	-2524
7	-2525
“	-2526
”	-2527
/	-2528
_	-2529
%	-2530
█	-2531
–	-2532
$	-2533
ل	-2534
—	-2535
*	-2536
‘	-2537
ا	-2538
+	-2539
♪	-2540
ه	-2541
م	-2542
ي	-2543
#	-2544
í	-2545
و	-2546
َ	-2547
é	-2548
ع	-2549
@	-2550
=	-2551
ن	-2552
‐	-2553
س	-2554
`	-2555
\	-2556
•	-2557
ر	-2558
ص	-2559
ى	-2560
ب	-2561
á	-2562
า	-2563
ِ	-2564
น	-2565
ت	-2566
ā	-2567
ج	-2568
ْ	-2569
أ	-2570
่	-2571
^	-2572
ف	-2573
د	-2574
ा	-2575
ك	-2576
|	-2577
ُ	-2578
ó	-2579
อ	-2580
ح	-2581
เ	-2582
ة	-2583
ّ	-2584
}	-2585
้	-2586
ก	-2587
{	-2588
ร	-2589
~	-2590
ง	-2591
ö	-2592
ี	-2593
ق	-2594
è	-2595
°	-2596
े	-2597
ü	-2598
ñ	-2599
ั	-2600
♫	-2601
ม	-2602
́	-2603
ı	-2604
إ	-2605
ह	-2606
क	-2607
ะ	-2608
ย	-2609
न	-2610
ว	-2611
£	-2612
ท	-2613
ꞌ	-2614
ł	-2615
म	-2616
ذ	-2617
ต	-2618
ล	-2619
ค	-2620
à	-2621
स	-2622
र	-2623
„	-2624
ش	-2625
خ	-2626
€	-2627
ด	-2628
ो	-2629
ी	-2630
ç	-2631
ि	-2632
ส	-2633
ê	-2634
ป	-2635
ō	-2636
แ	-2637
ä	-2638
บ	-2639
ู	-2640
â	-2641
е	-2642
ì	-2643
จ	-2644
็	-2645
ใ	-2646
ल	-2647
đ	-2648
ض	-2649
¡	-2650
ข	-2651
ห	-2652
ô	-2653
त	-2654
ú	-2655
ş	-2656
ं	-2657
î	-2658
प	-2659
ไ	-2660
ग	-2661
ื	-2662
ư	-2663
य	-2664
ء	-2665
พ	-2666
⁄	-2667
्	-2668
ī	-2669
о	-2670
α	-2671
ط	-2672
ํ	-2673
»	-2674
μ	-2675
δ	-2676
ु	-2677
ï	-2678
ū	-2679
ز	-2680
ã	-2681
а	-2682
ğ	-2683
च	-2684
ิ	-2685
ै	-2686
ئ	-2687
ज	-2688
द	-2689
ʻ	-2690
ờ	-2691
®	-2692
ث	-2693
ë	-2694
व	-2695
ѕ	-2696
ए	-2697
ช	-2698
å	-2699
غ	-2700
ć	-2701
ʿ	-2702
ω	-2703
آ	-2704
š	-2705
ख	-2706
會	-2707
ब	-2708
¬	-2709
ś	-2710
π	-2711
ุ	-2712
ṣ	-2713
ż	-2714
।	-2715
●	-2716
ø	-2717
у	-2718
🎶	-2719
़	-2720
θ	-2721
τ	-2722
ً	-2723
λ	-2724
ถ	-2725
ế	-2726
′	-2727
🎵	-2728
⁠	-2729
̓	-2730
ń	-2731
č	-2732
­	-2733
ی	-2734
ظ	-2735
आ	-2736
σ	-2737
ศ	-2738
æ	-2739
ू	-2740
ạ	-2741
𐤉	-2742
¿	-2743
с	-2744
ड	-2745
ँ	-2746
ษ	-2747
ə	-2748
ệ	-2749
𐤍	-2750
ē	-2751
𐤕	-2752
उ	-2753
โ	-2754
ḥ	-2755
ٍ	-2756
थ	-2757
ả	-2758
𐤇	-2759
𐤌	-2760
ٌ	-2761
ฝ	-2762
์	-2763
−	-2764
ึ	-2765
ợ	-2766
∠	-2767
	-2768
ε	-2769
ậ	-2770
ấ	-2771
р	-2772
ᵾ	-2773
ò	-2774
،	-2775
✨	-2776
·	-2777
ρ	-2778
«	-2779
ß	-2780
ự	-2781
₹	-2782
×	-2783
̊	-2784
ι	-2785
φ	-2786
ผ	-2787
‍	-2788
झ	-2789
ภ	-2790
ố	-2791
ứ	-2792
ầ	-2793
ể	-2794
ð	-2795
ٰ	-2796
ộ	-2797
	-2798
β	-2799
ṭ	-2800
️	-2801
💗	-2802
̶	-2803
ν	-2804
अ	-2805
ă	-2806
õ	-2807
ő	-2808
श	-2809
ọ	-2810
§	-2811
ề	-2812
我	-2813
🌌	-2814
ๆ	-2815
ơ	-2816
इ	-2817
ḍ	-2818
ớ	-2819
ę	-2820
ई	-2821
ญ	-2822
̸	-2823
ο	-2824
υ	-2825
ؤ	-2826
ฮ	-2827
ṇ	-2828
ỏ	-2829
ị	-2830
ở	-2831
ž	-2832
ɨ	-2833
†	-2834
ĩ	-2835
̵	-2836
भ	-2837
ซ	-2838
ủ	-2839
ʔ	-2840
и	-2841
ـ	-2842
ट	-2843
ồ	-2844
不	-2845
	-2846
б	-2847
छ	-2848
ữ	-2849
в	-2850
─	-2851
이	-2852
̄	-2853
к	-2854
❤	-2855
𐤋	-2856
γ	-2857
ہ	-2858
औ	-2859
⋅	-2860
κ	-2861
н	-2862
ढ	-2863
ณ	-2864
ử	-2865
―	-2866
	-2867
𐤐	-2868
🌈	-2869
ũ	-2870
η	-2871
ध	-2872
ธ	-2873
ฤ	-2874
ễ	-2875
ừ	-2876
☽	-2877
나	-2878
ù	-2879
œ	-2880
т	-2881
ặ	-2882
ổ	-2883
一	-2884
嗎	-2885
𐤂	-2886
𐤊	-2887
𐤓	-2888
©	-2889
х	-2890
ฉ	-2891
他	-2892
川	-2893
很	-2894
ɔ	-2895
̀	-2896
̕	-2897
ί	-2898
д	-2899
־	-2900
ắ	-2901
♦	-2902
你	-2903
𝄯	-2904
̧	-2905
ּ	-2906
ऊ	-2907
फ	-2908
ɛ	-2909
ː	-2910
̢	-2911
̱	-2912
̷	-2913
√	-2914
⌘	-2915
는	-2916
👧	-2917
͑	-2918
п	-2919
я	-2920
ٱ	-2921
ک	-2922
ष	-2923
ụ	-2924
⁡	-2925
再	-2926
文	-2927
族	-2928
꺼	-2929
야	-2930
하	-2931
𐤄	-2932
👩	-2933
💥	-2934
¥	-2935
̆	-2936
̈	-2937
̻	-2938
ौ	-2939
་	-2940
ẩ	-2941
►	-2942
點	-2943
𐤁	-2944
👍	-2945
👨	-2946
ě	-2947
İ	-2948
̣	-2949
͘	-2950
͚	-2951
͜	-2952
͡	-2953
ά	-2954
ओ	-2955
ẽ	-2956
ỉ	-2957
✔	-2958
。	-2959
好	-2960
字	-2961
車	-2962
세	-2963
한	-2964
𐤎	-2965
🎼	-2966
😈	-2967
û	-2968
ĺ	-2969
ŋ	-2970
ų	-2971
ʉ	-2972
̍	-2973
̰	-2974
̴	-2975
̹	-2976
͛	-2977
л	-2978
گ	-2979
ฟ	-2980
ẫ	-2981
→	-2982
♀	-2983
】	-2984
寫	-2985
漢	-2986
西	-2987
還	-2988
다	-2989
시	-2990
어	-2991
열	-2992
😎	-2993
±	-2994
ý	-2995
ɪ	-2996
̏	-2997
̒	-2998
͊	-2999
͓	-3000
͙	-3001
͝	-3002
͠	-3003
ή	-3004
ό	-3005
ж	-3006
м	-3007
घ	-3008
ṁ	-3009
ằ	-3010
ẹ	-3011
◾	-3012
➜	-3013
【	-3014
す	-3015
三	-3016
來	-3017
們	-3018
學	-3019
說	-3020
開	-3021
龍	-3022
가	-3023
리	-3024
큐	-3025
𐤔	-3026
🌙	-3027
🏻	-3028
þ	-3029
ű	-3030
ș	-3031
̌	-3032
̘	-3033
̛	-3034
̝	-3035
̩	-3036
̺	-3037
̼	-3038
̿	-3039
͕	-3040
͗	-3041
ठ	-3042
ण	-3043
က	-3044
ẻ	-3045
∞	-3046
♥	-3047
⠀	-3048
水	-3049
灘	-3050
理	-3051
越	-3052
鼓	-3053
니	-3054
사	-3055
섯	-3056
아	-3057
책	-3058
	-3059
🔇	-3060
ą	-3061
ů	-3062
ʕ	-3063
ʖ	-3064
̃	-3065
̅	-3066
̇	-3067
̎	-3068
̑	-3069
̔	-3070
̟	-3071
̡	-3072
̫	-3073
̲	-3074
͈	-3075
͉	-3076
͌	-3077
έ	-3078
χ	-3079
й	-3080
ю	-3081
ृ	-3082
ṛ	-3083
ỗ	-3084
ỡ	-3085
♬	-3086
た	-3087
中	-3088
個	-3089
做	-3090
古	-3091
多	-3092
天	-3093
太	-3094
定	-3095
山	-3096
是	-3097
菜	-3098
都	-3099
騎	-3100
개	-3101
산	-3102
살	-3103
삼	-3104
상	-3105
여	-3106
은	-3107
의	-3108
체	-3109
🌱	-3110
🏃	-3111
👣	-3112
🔔	-3113
😱	-3114
ƒ	-3115
ǫ	-3116
ɑ	-3117
ʼ	-3118
̋	-3119
̙	-3120
̚	-3121
̜	-3122
̠	-3123
̮	-3124
̯	-3125
͆	-3126
͇	-3127
͋	-3128
͎	-3129
͒	-3130
͔	-3131
ш	-3132
ь	-3133
ב	-3134
ོ	-3135
ẳ	-3136
‚	-3137
♩	-3138
⚑	-3139
〜	-3140
に	-3141
ー	-3142
也	-3143
了	-3144
人	-3145
代	-3146
修	-3147
可	-3148
吃	-3149
子	-3150
宏	-3151
小	-3152
島	-3153
年	-3154
打	-3155
氷	-3156
法	-3157
球	-3158
田	-3159
的	-3160
看	-3161
真	-3162
社	-3163
祐	-3164
神	-3165
約	-3166
行	-3167
見	-3168
語	-3169
기	-3170
네	-3171
둘	-3172
물	-3173
분	-3174
생	-3175
서	-3176
일	-3177
있	-3178
장	-3179
째	-3180
해	-3181
𐤃	-3182
𐤆	-3183
🏫	-3184
👀	-3185
👉	-3186
👋	-3187
👬	-3188
🔊	-3189
🔢	-3190
😊	-3191
¢	-3192
¶	-3193
ř	-3194
ź	-3195
ǎ	-3196
ǐ	-3197
ɒ	-3198
ʊ	-3199
ʋ	-3200
̉	-3201
̨	-3202
̳	-3203
̾	-3204
͂	-3205
͍	-3206
ζ	-3207
ύ	-3208
ٖ	-3209
ھ	-3210
ॉ	-3211
๋	-3212
ὶ	-3213
‡	-3214
◕	-3215
❁	-3216
つ	-3217
ま	-3218
・	-3219
事	-3220
原	-3221
基	-3222
大	-3223
就	-3224
新	-3225
明	-3226
東	-3227
機	-3228
歌	-3229
灣	-3230
石	-3231
自	-3232
買	-3233
這	-3234
道	-3235
面	-3236
국	-3237
근	-3238
끼	-3239
님	-3240
들	-3241
에	-3242
요	-3243
우	-3244
지	-3245
홉	-3246
	-3247
👁	-3248
👭	-3249
💩	-3250
💯	-3251
💸	-3252
📚	-3253
📜	-3254
🔄	-3255
🔗	-3256
🙏	-3257
÷	-3258
ǔ	-3259
ɬ	-3260
ʁ	-3261
ʃ	-3262
̂	-3263
̖	-3264
̗	-3265
̞	-3266
̤	-3267
̥	-3268
̦	-3269
̭	-3270
̽	-3271
͖	-3272
з	-3273
ц	-3274
ы	-3275
ש	-3276
؟	-3277
چ	-3278
ฐ	-3279
ང	-3280
བ	-3281
ᵼ	-3282
⌚	-3283
⌛	-3284
⌥	-3285
◡	-3286
➕	-3287
い	-3288
が	-3289
し	-3290
ち	-3291
っ	-3292
で	-3293
の	-3294
は	-3295
イ	-3296
シ	-3297
上	-3298
下	-3299
九	-3300
今	-3301
元	-3302
克	-3303
初	-3304
只	-3305
唱	-3306
喜	-3307
器	-3308
塔	-3309
尔	-3310
成	-3311
日	-3312
早	-3313
書	-3314
月	-3315
朋	-3316
沒	-3317
海	-3318
演	-3319
種	-3320
美	-3321
聽	-3322
舞	-3323
英	-3324
藤	-3325
詣	-3326
雨	-3327
고	-3328
공	-3329
그	-3330
금	-3331
내	-3332
넷	-3333
달	-3334
두	-3335
른	-3336
마	-3337
선	-3338
셋	-3339
스	-3340
쎄	-3341
폰	-3342
흔	-3343
﴾	-3344
﴿	-3345
𐤏	-3346
🏰	-3347
👌	-3348
👿	-3349
💅	-3350
🕳	-3351
😀	-3352
😂	-3353
😉	-3354
🚇	-3355
🤣	-3356
ÿ	-3357
ĕ	-3358
ŷ	-3359
ƛ	-3360
ǒ	-3361
ɴ	-3362
ʀ	-3363
ʏ	-3364
ʽ	-3365
ˈ	-3366
˧	-3367
̐	-3368
̪	-3369
ϊ	-3370
г	-3371
ו	-3372
י	-3373
ע	-3374
؛	-3375
ٓ	-3376
ۃ	-3377
ۇ	-3378
ۈ	-3379
۔	-3380
ۖ	-3381
ऐ	-3382
ॅ	-3383
༓	-3384
༼	-3385
༽	-3386
ག	-3387
ད	-3388
མ	-3389
ལ	-3390
ས	-3391
ẓ	-3392
ỳ	-3393
ỵ	-3394
ỷ	-3395
ỹ	-3396
ἐ	-3397
ἑ	-3398
ἔ	-3399
ὖ	-3400
ὸ	-3401
ῳ	-3402
‧	-3403
‬	-3404
₱	-3405
∆	-3406
∫	-3407
≥	-3408
╯	-3409
╰	-3410
▐	-3411
■	-3412
▽	-3413
◄	-3414
◠	-3415
◦	-3416
☑	-3417
☕	-3418
☠	-3419
☢	-3420
☣	-3421
♨	-3422
♯	-3423
♾	-3424
⛔	-3425
✂	-3426
✝	-3427
《	-3428
》	-3429
「	-3430
」	-3431
か	-3432
こ	-3433
と	-3434
ね	-3435
や	-3436
ら	-3437
り	-3438
ん	-3439
ク	-3440
ケ	-3441
ス	-3442
タ	-3443
ツ	-3444
ト	-3445
ョ	-3446
久	-3447
乌	-3448
乐	-3449
云	-3450
井	-3451
仁	-3452
兩	-3453
前	-3454
劉	-3455
包	-3456
去	-3457
友	-3458
口	-3459
吉	-3460
名	-3461
和	-3462
哈	-3463
在	-3464
壞	-3465
夫	-3466
安	-3467
宫	-3468
家	-3469
寺	-3470
少	-3471
州	-3472
巴	-3473
幾	-3474
得	-3475
微	-3476
托	-3477
拉	-3478
摩	-3479
料	-3480
有	-3481
木	-3482
本	-3483
杭	-3484
棒	-3485
樂	-3486
歡	-3487
每	-3488
民	-3489
河	-3490
洲	-3491
清	-3492
現	-3493
用	-3494
福	-3495
竹	-3496
籃	-3497
結	-3498
聚	-3499
臺	-3500
苗	-3501
華	-3502
萨	-3503
蠔	-3504
要	-3505
覺	-3506
試	-3507
謝	-3508
議	-3509
语	-3510
谷	-3511
走	-3512
路	-3513
過	-3514
達	-3515
郎	-3516
酒	-3517
野	-3518
錢	-3519
音	-3520
飯	-3521
餐	-3522
馬	-3523
ꈍ	-3524
걔	-3525
곱	-3526
권	-3527
너	-3528
답	-3529
덟	-3530
땅	-3531
람	-3532
를	-3533
명	-3534
방	-3535
부	-3536
순	-3537
십	-3538
았	-3539
오	-3540
저	-3541
팔	-3542
𐤅	-3543
𐤒	-3544
🆓	-3545
🌀	-3546
🌄	-3547
🌟	-3548
🌠	-3549
🌪	-3550
🌴	-3551
🎃	-3552
🎤	-3553
🎧	-3554
🎨	-3555
🎯	-3556
🏾	-3557
👄	-3558
👈	-3559
👏	-3560
💜	-3561
💤	-3562
💼	-3563
📑	-3564
🔬	-3565
😅	-3566
😭	-3567
🚀	-3568
🛑	-3569
🤔	-3570
🥰	-3571
🧐	-3572
🧘	-3573
ď	-3574
ň	-3575
ţ	-3576
ɕ	-3577
ɡ	-3578
ɢ	-3579
ɣ	-3580
ɺ	-3581
ɾ	-3582
ʒ	-3583
ʟ	-3584
ˀ	-3585
ˆ	-3586
ˇ	-3587
ˬ	-3588
̬	-3589
͐	-3590
͟	-3591
ξ	-3592
ψ	-3593
ч	-3594
ё	-3595
і	-3596
ў	-3597
ԛ	-3598
א	-3599
ג	-3600
ח	-3601
צ	-3602
ר	-3603
٢	-3604
پ	-3605
ې	-3606
ە	-3607
ۚ	-3608
۟	-3609
ः	-3610
ञ	-3611
ฆ	-3612
ฒ	-3613
ཇ	-3614
ཏ	-3615
པ	-3616
ཕ	-3617
ཙ	-3618
ུ	-3619
ྲ	-3620
ླ	-3621
ྷ	-3622
ᴀ	-3623
ᴏ	-3624
ᴘ	-3625
ᴡ	-3626
ḷ	-3627
ṅ	-3628
‒	-3629
‽	-3630
‿	-3631
⃣	-3632
⅄	-3633
∴	-3634
≠	-3635
≤	-3636
⌊	-3637
⌋	-3638
⏬	-3639
⏭	-3640
⏸	-3641
⏹	-3642
━	-3643
┃	-3644
□	-3645
▪	-3646
▲	-3647
△	-3648
○	-3649
◯	-3650
☝	-3651
☺	-3652
☾	-3653
♂	-3654
♒	-3655
⚖	-3656
⚙	-3657
⚛	-3658
⚡	-3659
⚪	-3660
✊	-3661
✌	-3662
✿	-3663
❀	-3664
❌	-3665
❓	-3666
、	-3667
あ	-3668
う	-3669
お	-3670
き	-3671
ご	-3672
ざ	-3673
じ	-3674
だ	-3675
な	-3676
ば	-3677
へ	-3678
み	-3679
も	-3680
ゃ	-3681
よ	-3682
る	-3683
を	-3684
ア	-3685
キ	-3686
グ	-3687
コ	-3688
ッ	-3689
テ	-3690
ニ	-3691
ノ	-3692
バ	-3693
ベ	-3694
ホ	-3695
マ	-3696
ミ	-3697
ム	-3698
メ	-3699
ヤ	-3700
ュ	-3701
ラ	-3702
リ	-3703
ル	-3704
レ	-3705
ワ	-3706
ン	-3707
丁	-3708
並	-3709
主	-3710
义	-3711
京	-3712
什	-3713
介	-3714
以	-3715
伶	-3716
伸	-3717
佛	-3718
俊	-3719
保	-3720
信	-3721
傣	-3722
公	-3723
六	-3724
兴	-3725
冀	-3726
冈	-3727
冨	-3728
到	-3729
加	-3730
十	-3731
半	-3732
協	-3733
博	-3734
参	-3735
參	-3736
又	-3737
双	-3738
君	-3739
吴	-3740
吾	-3741
呀	-3742
命	-3743
品	-3744
問	-3745
善	-3746
喝	-3747
單	-3748
嘉	-3749
嘴	-3750
四	-3751
回	-3752
囲	-3753
國	-3754
圍	-3755
團	-3756
圭	-3757
坪	-3758
域	-3759
堆	-3760
塘	-3761
壮	-3762
外	-3763
奈	-3764
如	-3765
始	-3766
姻	-3767
婚	-3768
孜	-3769
孝	-3770
孩	-3771
宁	-3772
宜	-3773
宝	-3774
寨	-3775
寬	-3776
封	-3777
尕	-3778
尼	-3779
岁	-3780
峨	-3781
峰	-3782
崎	-3783
己	-3784
布	-3785
帝	-3786
師	-3787
平	-3788
幸	-3789
庭	-3790
廳	-3791
建	-3792
式	-3793
張	-3794
彝	-3795
彦	-3796
彼	-3797
志	-3798
怀	-3799
性	-3800
恩	-3801
恵	-3802
意	-3803
愛	-3804
慶	-3805
批	-3806
提	-3807
攻	-3808
教	-3809
旨	-3810
昆	-3811
星	-3812
春	-3813
晋	-3814
晚	-3815
晨	-3816
普	-3817
晴	-3818
曦	-3819
朗	-3820
末	-3821
李	-3822
村	-3823
松	-3824
林	-3825
柯	-3826
校	-3827
桜	-3828
桥	-3829
桶	-3830
梶	-3831
棋	-3832
森	-3833
極	-3834
楽	-3835
樣	-3836
橋	-3837
次	-3838
正	-3839
武	-3840
永	-3841
江	-3842
汶	-3843
沖	-3844
沙	-3845
沟	-3846
波	-3847
泰	-3848
津	-3849
洪	-3850
淡	-3851
淳	-3852
淵	-3853
湖	-3854
湾	-3855
溪	-3856
滨	-3857
滩	-3858
澤	-3859
瀀	-3860
灵	-3861
烏	-3862
爆	-3863
版	-3864
猛	-3865
獻	-3866
玛	-3867
珠	-3868
產	-3869
申	-3870
界	-3871
疆	-3872
白	-3873
百	-3874
直	-3875
眉	-3876
眾	-3877
知	-3878
碁	-3879
碇	-3880
祈	-3881
祖	-3882
禅	-3883
禎	-3884
禱	-3885
私	-3886
穆	-3887
窟	-3888
立	-3889
章	-3890
第	-3891
簡	-3892
粉	-3893
純	-3894
紹	-3895
統	-3896
絲	-3897
練	-3898
縄	-3899
繼	-3900
續	-3901
红	-3902
纳	-3903
维	-3904
習	-3905
腦	-3906
臉	-3907
興	-3908
艾	-3909
苍	-3910
蒙	-3911
藏	-3912
藕	-3913
號	-3914
表	-3915
裕	-3916
言	-3917
討	-3918
話	-3919
課	-3920
論	-3921
识	-3922
话	-3923
貴	-3924
起	-3925
跳	-3926
踏	-3927
辣	-3928
达	-3929
通	-3930
那	-3931
里	-3932
鈕	-3933
钱	-3934
間	-3935
阿	-3936
陆	-3937
陳	-3938
隐	-3939
雅	-3940
電	-3941
靈	-3942
靖	-3943
非	-3944
頑	-3945
題	-3946
顧	-3947
風	-3948
饿	-3949
首	-3950
马	-3951
鲁	-3952
鳥	-3953
鸡	-3954
麻	-3955
麼	-3956
黃	-3957
齐	-3958
감	-3959
강	-3960
건	-3961
구	-3962
남	-3963
년	-3964
녕	-3965
농	-3966
더	-3967
동	-3968
둑	-3969
든	-3970
례	-3971
로	-3972
무	-3973
뭉	-3974
민	-3975
밍	-3976
바	-3977
박	-3978
반	-3979
번	-3980
보	-3981
쁜	-3982
석	-3983
셨	-3984
쉰	-3985
습	-3986
안	-3987
억	-3988
없	-3989
었	-3990
영	-3991
예	-3992
원	-3993
월	-3994
유	-3995
육	-3996
자	-3997
족	-3998
종	-3999
찬	-4000
충	-4001
치	-4002
칠	-4003
쿠	-4004
키	-4005
팡	-4006
표	-4007
필	-4008
할	-4009
합	-4010
현	-4011
휴	-4012
	-4013
︎	-4014
𝄬	-4015
𝄮	-4016
𝄳	-4017
🇦	-4018
🇮	-4019
🇳	-4020
🇿	-4021
🌎	-4022
🌐	-4023
🌫	-4024
🌸	-4025
🌹	-4026
🌿	-4027
🍂	-4028
🍃	-4029
🍍	-4030
🎉	-4031
🎓	-4032
🎮	-4033
🎲	-4034
🏝	-4035
🏠	-4036
🏼	-4037
🐇	-4038
🐌	-4039
🐞	-4040
🐠	-4041
🐢	-4042
🐤	-4043
👑	-4044
👥	-4045
👦	-4046
👲	-4047
💁	-4048
💂	-4049
💋	-4050
💌	-4051
💏	-4052
💑	-4053
💓	-4054
💔	-4055
💖	-4056
💚	-4057
💛	-4058
💟	-4059
💫	-4060
📅	-4061
📈	-4062
📋	-4063
📗	-4064
📝	-4065
📢	-4066
📤	-4067
📬	-4068
📮	-4069
📰	-4070
🔀	-4071
🔁	-4072
🔐	-4073
🔑	-4074
🔒	-4075
🔓	-4076
🔕	-4077
🔥	-4078
🔽	-4079
🕊	-4080
🕹	-4081
🗝	-4082
😄	-4083
😆	-4084
😍	-4085
😝	-4086
😢	-4087
😾	-4088
🙂	-4089
🙈	-4090
🙉	-4091
